/**
  ******************************************************************************
  * @file    network_data_params.c
  * @author  AST Embedded Analytics Research Platform
  * @date    2026-03-20T02:06:47+0100
  * @brief   AI Tool Automatic Code Generator for Embedded NN computing
  ******************************************************************************
  * Copyright (c) 2026 STMicroelectronics.
  * All rights reserved.
  *
  * This software is licensed under terms that can be found in the LICENSE file
  * in the root directory of this software component.
  * If no LICENSE file comes with this software, it is provided AS-IS.
  ******************************************************************************
  */

#include "network_data_params.h"


/**  Activations Section  ****************************************************/
ai_handle g_network_activations_table[1 + 2] = {
  AI_HANDLE_PTR(AI_MAGIC_MARKER),
  AI_HANDLE_PTR(NULL),
  AI_HANDLE_PTR(AI_MAGIC_MARKER),
};




/**  Weights Section  ********************************************************/
AI_ALIGNED(32)
const ai_u64 s_network_weights_array_u64[610] = {
  0xbe94df30be6b3e08U, 0xbe74c47c3ca9cff5U, 0x3dfa58f83ea9f0cfU, 0x3dddbeddbe00e051U,
  0x3e4ae72cba2c232bU, 0x3c4909bfbdf6cda0U, 0x3e75ce9a3d2d032cU, 0x3ea28bedbda4a8f4U,
  0xbd5ddf7dbe5cbe09U, 0xbdcf6575bdbfc6f5U, 0x3e61d06d3e367169U, 0x3e7f62d3be04efa1U,
  0x3d003820bea9d66cU, 0x3e65f7743da1ef95U, 0xbe608ef13e0bb7ecU, 0x3d5df7e1bd4e9e75U,
  0x3d908f37bd6b739cU, 0x3ea95a963d5e636cU, 0xbe4269f03e327789U, 0xbe3b62603cb6ce82U,
  0x3e42e83dbeb54737U, 0x3e981b0b3e94bc2aU, 0x3e8b265b3c58a0a8U, 0xbe12581dbe976270U,
  0x3e765b503ea8b37aU, 0xbd87d2363da8811dU, 0x3ddaf9743e24a3f5U, 0xbe779f7bbde0b89fU,
  0x3dd7ff513e2461d2U, 0x3e9bb83abe893720U, 0x3e98e9203eae7b53U, 0x3e85f2d23e267a5cU,
  0xbd54df783e99cd71U, 0x3dc49804bb7c91ebU, 0xbd040e943dfd9df9U, 0xbbd9b326bde6a5b6U,
  0x3eb081f2be4ebe12U, 0xbe31d4b53d19abe3U, 0x3d36efbc3eab0144U, 0xbe9275e0be9b910eU,
  0xbe2bcbff3e1ebec3U, 0x3e46dfa43e1da140U, 0xbe1d78a03db10843U, 0x3d0158c5beae16adU,
  0x3cf0b9883e831ce5U, 0xbe825cbebd477c46U, 0x3e91f725bb3301caU, 0xbeba3d343e886b38U,
  0xbd38115f3eab1366U, 0x3e106c753e3b124aU, 0xbbdace733ebe64edU, 0xbd84e73e3ec080a2U,
  0x3d81a6ae3ea76b5eU, 0xbea63a88bdd104f9U, 0x3e38a1e43c68b9fcU, 0xbb08abb03dff273bU,
  0xbbc947603e76dc14U, 0xbe481ecbbdcd0b39U, 0x3de35da03e97a2a5U, 0x3e5f38593d7d573eU,
  0xbe992b543d678357U, 0xbe8b186e3e590d71U, 0xbe3b85033e840daaU, 0xbe1edab4bce95cd7U,
  0xbe6103893e7f2cf6U, 0xbdcf48bf3d900544U, 0xbe7a53f93e998a92U, 0xbd172a593e472a4aU,
  0xbe611859bd8846c8U, 0xbdd91216be0a8566U, 0xbd8b585ebe8da750U, 0x3c5489a93e496cd3U,
  0x3e5deb2fbc66e273U, 0x3e4efe033dcf0cb1U, 0xbd800778beaa51a3U, 0x3ce5287b3e89df73U,
  0xbeb02995bd815d9cU, 0xbe586c59beb0da97U, 0x3e2ad73bbb93728aU, 0x3e89ff6e3e6403a1U,
  0xbca7b04dbe6750adU, 0x3e8008c2bddcf25fU, 0x3ea075e9be9134b1U, 0x3dc1bdb6bd31442bU,
  0xbe4a88853def8fd0U, 0x3e213dc6bc798551U, 0xbeaa9af7be94debcU, 0x3e924615be87c20fU,
  0xbe1700a9be6e339aU, 0x3e37b29abe78449aU, 0xbe1cb8c4be3a8fb2U, 0xbe858d6cbe8b0806U,
  0xbd3663e0bdb02fe8U, 0xbe8b9fd83e85d4f3U, 0xbe9af97fbea1cd61U, 0xbebe08113d8c72e6U,
  0xbe24aed03e41a0f9U, 0xbeaad0bd3ea59c83U, 0xbe047b733ea70e34U, 0x3e500e433e893e57U,
  0x3e8880513e29bbd0U, 0x3d90fa21bdef0305U, 0x3ea8b60b3e5c8c13U, 0xbe86f94fbd594dd5U,
  0x3d873730be76c960U, 0xbe0cb3acbe23a10eU, 0x3e12ed573e25714cU, 0xbe8300ccbdf5ae31U,
  0x3e3081b73df65d3aU, 0x3e0784f03e297357U, 0x3be4001bbd1dc072U, 0x3d980c8d3e61cfd6U,
  0x3c400d983d87360fU, 0xbc9308dc3d87e499U, 0xbd88fd33bea13a3fU, 0xbcef37ca3e9270f8U,
  0x3db4c63bbe01dc2dU, 0xbe683770beafd35fU, 0x3eb20c933e65a1c9U, 0x3e6519bfbe5458acU,
  0xbce3dc46be712a72U, 0x3eacdaaa3e1bf46dU, 0xbd9360c5bdffa95eU, 0xbeaed27abcf04320U,
  0xbe553377bea53024U, 0xbdbd22c5be4dccdfU, 0xbeade442bd7f731eU, 0xbe3c3c9b3e351a56U,
  0x3da62b5dbe3935caU, 0x3eab8bffbe00e723U, 0x3eb893033d9b0a7aU, 0x3e93b3533d025fc7U,
  0xbe42624fbe2cb177U, 0x3c1f1260be0724c0U, 0xbea462793dbc7a04U, 0x3e7ccb8e3e70deeeU,
  0xbe82a286be43953fU, 0x3e244cfe3d18ebb8U, 0xbe2b1194beaa63d1U, 0xbdcbc4c43ea89543U,
  0xbea48b9f3e8faaa5U, 0xbe23585fbdff8d7aU, 0x3e0129403cc27a30U, 0x3d72b2cebe70989dU,
  0xbe821327be75381aU, 0xbd71e4723e2e9e12U, 0xbd302e593eae705fU, 0x3e6da83d3e9d5a61U,
  0xbe3c970c3de98428U, 0x3eabb6fbbd641eacU, 0x3e9c37b0be3a1729U, 0x3ec6d1103e4e38e7U,
  0xbe062ce7bd52235cU, 0xbe502a4cbe8169d6U, 0x3e98e18b3e181700U, 0x3e36c2a03ead41e8U,
  0xbead4e5a3e50736dU, 0x3e1eab74bea20da8U, 0xbe8e17d1be4ee2aaU, 0xbdff03bb3dc574f6U,
  0x3d130446bcccf26aU, 0x3e96de4b3e2ca349U, 0x3ea95951be767440U, 0x3ce1b080beab7b54U,
  0x3e094e6abd45db40U, 0x3e9bde4f3e6184d6U, 0xbe5139e1bda4edf8U, 0xbd5953803e9f15ffU,
  0xbe5b6a4f3e020cf4U, 0xbe52bf8cbe9771dfU, 0xbd042da0be0057d4U, 0x3d148d493d4f11d0U,
  0x3e93a500bd748ea5U, 0x3e1fc063be1da389U, 0xbc96258fbe887e64U, 0xbdeb09febe6a8782U,
  0x3d5d2b55bea2ab35U, 0xbec438a6bebe0d64U, 0xbc86b4433d5b3b8dU, 0xbda3c0a03e43e810U,
  0x3e3b654c3e3c7f3dU, 0x3e877a04be4c6cacU, 0xbebb9f9d3d94d06eU, 0x3e0307b73e9b2b9dU,
  0x3e704e403e998c3aU, 0xbe91e3d23df7f3edU, 0x3d993ce63eb22f0eU, 0xbe99d082bc8dd9a5U,
  0xbcede41d3e637931U, 0x3e03ea8b3e8c5414U, 0xbea1e283beae9f34U, 0xbdbc0ad43e7aa54fU,
  0xbdd435ff3e12c91bU, 0xbe488290be309993U, 0x3d3a5e6cbe06b10aU, 0x3cde7ecf3e30f0b3U,
  0x3e7d09f23e7b3d6cU, 0x3a2f99b1be5ebca7U, 0xbe6bfa2b3ec3a73bU, 0x3e67ebda3e6d40ccU,
  0xbd6ffa103dd78574U, 0x3d0038c0be49d829U, 0x3ea5ebb5be38fdcaU, 0xbd6881f0be87269bU,
  0x3d4ba8b03da4f750U, 0xbe12fcad3dcca654U, 0x3dbbcf943d8b91ecU, 0xbe248df83e3dd602U,
  0x3e89e3b7be90552aU, 0x3e30a2a0bdb9213dU, 0x3e9cb4373e0a7840U, 0x3d3a24bd3e80e21cU,
  0xbe2b3b223e927499U, 0x3e066283be40ec6eU, 0xbe351ee5be38a3ecU, 0x3e067c683e464cc5U,
  0xbd61d2b33e323217U, 0xbdf95d233e0de57bU, 0xbe4c3368be767b10U, 0xbd5e7508be3a2848U,
  0x3e2a973ebe3334d6U, 0xbdb2b77cbe57ec13U, 0x3d3a0b783e362bceU, 0xbe1a72b3bda4ea3cU,
  0xbe8a4e6bbe4fb437U, 0xbd95b040bd0f69e8U, 0xbd964d20be723dbcU, 0xbe42f9193e2a94eaU,
  0xbe3bb38e3de5bc84U, 0xbd851917bdfdf729U, 0x3daba2eb3d1a3935U, 0xbe50c666be163ab4U,
  0x3e31e5a1bcbfe7f1U, 0x3d9d10d9be274ae7U, 0x3de219d93ea28d45U, 0x3df908073dbfe518U,
  0xbe82e89d3e867418U, 0xbd579dd3be96949bU, 0x3d2f23903eac1e7eU, 0xbe7dcd40bda42d79U,
  0xbeb1fb093e8f2664U, 0x3c3354e43caf6458U, 0x3d8a6bd23e72e62bU, 0xbe9af819be40d970U,
  0x3d3812e23d884b59U, 0x3de46b5d3db75c23U, 0x3cafd4ae3ea91d27U, 0x3de354df3e81d97eU,
  0xbce946553d23fbabU, 0xbe0e948e3d08a60fU, 0xbeba660e3e02e90bU, 0x3e7511093d0daab5U,
  0x3e9b37b3bd469254U, 0xbe3f59b83e9a15e0U, 0x3d4c9e2cbe2e712fU, 0xbe186ac2be82fb81U,
  0xbbe18974be603be6U, 0x3ec0ead13b5d3454U, 0x3e22c5aebd464854U, 0xbe9da4dc3ded2453U,
  0xbc9527613ec0a18cU, 0xbe01402cbe5a4570U, 0xbbf5041ebe98b863U, 0xbdf95735be4208a8U,
  0x3e8545eb3d474a26U, 0x3e48655d3e717347U, 0xbddf4d943dc4acfcU, 0xbe8958ddbe83079cU,
  0x3e6a87163e8741d5U, 0x3db315903eae8b79U, 0x3e61a88ebea560b5U, 0x3e3c94c2be5fe459U,
  0x3ea38a63be969568U, 0xbea9bcbf3e833713U, 0x3e323426bb8263c0U, 0xbe6025f0bdab45ecU,
  0xbe063ec0be92e258U, 0x3ea8e581be8ea2c9U, 0x3cf29990be11ec49U, 0x3e3964f3be7b40bbU,
  0xbe07ab08beb149e6U, 0xbc3836523d91de07U, 0xbea9ab01bdcf0ff3U, 0x3e45b6753e9df39dU,
  0xbe9c497c3d3ef694U, 0xbd8692543e203c30U, 0x3e2305723e03243eU, 0x3e6dce563e2e4f46U,
  0x3dcc8270bd9ce940U, 0xbd8ac8ccbd8b5884U, 0xbde15c82bea27d82U, 0xbe08e671be8285f8U,
  0xbe9dcf42be521b61U, 0xbdd614e6be21554cU, 0x3e8dacdabe7d6e62U, 0xbb8e0598be83ea97U,
  0x3e7a11253e64652eU, 0x3dcaccf8be0218b6U, 0xbea840193d0a9b9fU, 0xbd23a86dbe8902ceU,
  0x3d5f89bfbd73d0faU, 0x3e70d01e3eb01386U, 0x3d6bf920be435eb4U, 0xbc3130c0be91d175U,
  0x3d0cd2123d11358fU, 0x3d2acfd83cd940d4U, 0xbd19aabfbce4c51aU, 0xbc950c95bab0d5e6U,
  0x3ba8efbaU, 0x3b6573f33c8cb0dcU, 0x3d5687dd3d04cf4eU, 0x3ce36de200000000U,
  0xbc83e103U, 0x3cc81899bd140d36U, 0x3d09b94aU, 0x3d2da6f4U,
  0xbbd8dc2a3a709003U, 0x3cd1a01dbb91ebb1U, 0x3b3aa62500000000U, 0x3c9aa9a500000000U,
  0x3dcfe432bead45c4U, 0x3eccd84ebeaa1d06U, 0xbe4b16e93e0a65e3U, 0xbe0ad3e0bea9aee4U,
  0x3db2a3403da8109cU, 0x3d0f42c1beadad0eU, 0x3d12147b3e7a6deeU, 0x3dfbee4f3e26e862U,
  0x3bd61180be09a9bbU, 0x3eb821d13c49af25U, 0xbe40e05cbe3dee92U, 0x3e16140e3e8b5fd5U,
  0x3eb27e0cbe9e5419U, 0x3eb5b78b3d16aaa5U, 0xbe06d5c83de6a678U, 0x3ec2b3e93d310d78U,
  0x3e122fce3e378ea4U, 0x3eb5ad08be30a5e4U, 0xbe5f36ccbce27c3eU, 0xbe6e52183b34032cU,
  0xbd2253e0be168f0fU, 0xbe77653c3ddda7d3U, 0x3e3507f83dae8821U, 0xbe32bf123dc53910U,
  0xbea6e37b3cb79c8dU, 0x3cd14bfa3d8892e8U, 0xbe11843e3ea7b002U, 0x3dbce0683e3a4113U,
  0x3e6445d33e62f2f9U, 0x3d2800453ea31d32U, 0x3d8b8d4bbbd00200U, 0xbe9ed35c3eaa981fU,
  0xbe409ddf3ddf38d4U, 0xbe9d9e8dbe30af69U, 0x3e00c7b4bd4b0620U, 0x3e20ae0ebe3b9185U,
  0xbdd685b63dac27b8U, 0xbe9371d0be85043eU, 0xbe81ec0cbeb2e14cU, 0xbdbd1c98babe9f00U,
  0xbdfa60663dcc96e8U, 0x3cfa6720bd90f8dcU, 0xbea318d5bd385b80U, 0x3ea989d93c2dafa0U,
  0x3e846941bea4f530U, 0x3d13c158bea7683dU, 0xbdfddef03dcd42bcU, 0xbe4790f9be2920fdU,
  0xbda52ede3d8da30aU, 0xbe9a73933e80b7f3U, 0x3c9b4654be78ac29U, 0x3ba572833dae6491U,
  0xbe61ac5ebe4e1568U, 0x3eb5842f3e13b546U, 0x3ec641563e9a99caU, 0x3eb3474dbe4fcda2U,
  0x3e5359663e242d7eU, 0x3e59a6cd3e9d1cbbU, 0xbe126492bd4bcd4bU, 0xbaedf400bdad9936U,
  0x3cab4000be79d80fU, 0xbdb45278be7185e4U, 0xbe224b143ddf2e30U, 0xbd9f91eebddedcd2U,
  0x3cad3c683e2c8a97U, 0xbe91a256bde9c5aaU, 0xbe858b7dba909550U, 0x3df5037d3ec12d97U,
  0x3d18a5303dae521fU, 0xbdcb8f94be1d6598U, 0x3e4d597cbd9ee609U, 0xbd50e1283d1b9340U,
  0xbea38aff3e0fc0f4U, 0x3dd03811bea7e008U, 0xbd358fa03e2877b9U, 0xbe9456793e5d4745U,
  0xbe2ec7f13e682f92U, 0x3e8115963cb343feU, 0xbd34850f3e7ab972U, 0x3e00bc353dfb336cU,
  0xbeb2f030be86670eU, 0x3db01e3cbeafdbb0U, 0x3eaa57a9be391449U, 0xbdd318acbd261050U,
  0x3d579b883d0073e8U, 0xbd9bbb2cbcde1b00U, 0x3d75bf60be8b99b5U, 0x3e190c4e3d40f390U,
  0xbe945cf5bd0d61b0U, 0xbe82a4293e13f466U, 0xbd6402b03cfe3d50U, 0x3e751476be7dd273U,
  0x3ea71e39bdaad4a8U, 0x3e3a5a263e8adc89U, 0x3e0bd5e0bd6fb798U, 0xbd94fb703e3b0c2aU,
  0x3e9da5aa3e8f2485U, 0x3eb9433bbe5159c1U, 0xbe8ec30ebddc7a7fU, 0xbe9cdb283e81cd78U,
  0x3e8eade93dc9057dU, 0xbdafd7993dee3d50U, 0xbe5ced2c3e041a3dU, 0xbe899b64bea629b8U,
  0x3de29d083d1e279fU, 0x3d2869613e7882e6U, 0x3e349632be0a0429U, 0xbe60d1d43e6d2d4eU,
  0x3db2dacf3c5b9bfaU, 0x3e8302643c14091eU, 0x3c039f55be9f2fb9U, 0xbdcb7eb7bdc04efcU,
  0xbe9ffcf5bb5f5a5aU, 0xbeb7fafa3d9e3c5cU, 0x3e97cc073decd85bU, 0xbdc46a7c3e902d8fU,
  0x3eb0230dbe59614eU, 0x3de725c63de636e0U, 0x3cef23453d0f4d5aU, 0x3dc3f0dbbd9ef1f8U,
  0x3e31be2abd9411e5U, 0x3eb83cd5bea5ce18U, 0x3dde5a50bebc38f0U, 0x3ce979d0be9f432cU,
  0x3eb54677be164fbdU, 0x3eb59ce13c540470U, 0xbebdacaf3df6f5d8U, 0xbea53a8ebde3be1aU,
  0x3d4a41883e9ba9f1U, 0x3e547f82bea9b56dU, 0x3dc018d8be9b8a2dU, 0x3e77c362bea4bc20U,
  0xbea62be03cdda020U, 0xbe885f00be9eabf0U, 0xbcb10980be8a8abeU, 0xbcc52d603e960e15U,
  0xbe7c91233cdf5bb0U, 0xbdb781b4be52eb9aU, 0x3e923649beaf70c0U, 0xbd8429e8be4c0534U,
  0x3e9e7c79be87dca9U, 0x3e4b0f3a3dd605c4U, 0xbe26549abdf3b2c0U, 0x3d84dab03e52e056U,
  0xbd0451a1be1dac87U, 0xbe142cacbdb66455U, 0xbc5550573e2d931bU, 0x3e2d2585bea36b8eU,
  0xbdd35c643e7df1beU, 0x3e99dd28be477819U, 0x3e6edcd6be22f67fU, 0xbeba60b2be8bf31fU,
  0x3e35f912be9938f2U, 0xbeb458fdbdb0b2edU, 0xbd3facf8be123033U, 0xbeadcdad3e9fe0ccU,
  0x3dffd2853e197a04U, 0x3e8307183e88125aU, 0x3d0b8a403eb208f1U, 0x3e7df95a3e6a80daU,
  0x3ea09407be185634U, 0xbe12cd153e175d38U, 0x3d6c5baabddeedf3U, 0x3ebb0abe3e9e6cd7U,
  0x3e27918ebd07aac8U, 0x3ea03eb33e81b5feU, 0x3ed19d5cbe2982dfU, 0x3e9a61e73e7c9ebaU,
  0xbe9776e03e30d80eU, 0x3e9bb782bd65809fU, 0x3d7731b8be92e48cU, 0xbe90af6cbe26ece4U,
  0xbec255b53e7fea9dU, 0xbdd80b583d3bd6b4U, 0x3ca68f0c3e0763b8U, 0x3eac47fdbeaa76beU,
  0xbe6531113e587b8aU, 0x3ea3d309bead94cfU, 0x3d5387d0be4f33baU, 0xbe380ba73eadfde7U,
  0xbea106cdbe80941eU, 0xbe8abfd2be9f5d9eU, 0xbe5e5596bd61de40U, 0x3e923a9f3d3297f0U,
  0xbe3517d2beb05c59U, 0xbd4b7898bdc23d40U, 0x3d43bc683e8a6469U, 0x3e40b2debe9dbafaU,
  0x3e9ff373bd7ccdc8U, 0xbe455b773e816a5dU, 0xbcdb9340be4fe18aU, 0xbeab88ec3e47b53aU,
  0x3d95b2f0be2666adU, 0xbe81fe12be6c386aU, 0xbd9ab574bd3b09c0U, 0xbe510bda3c4afbe0U,
  0x3e7a67b2bc5cd800U, 0x3e0223c8be99927cU, 0xbe8353973e3c5836U, 0xbe8a7445be816ee1U,
  0x3e8e4aafbe5147abU, 0xbea5fcc6bdc3ce38U, 0xbe7a237abe803a48U, 0xbe6f1686beb15d94U,
  0x3e2fe81e3dc90138U, 0x3e9b0919bd6ee9e8U, 0x3e2db9ce3e7dc11aU, 0xbcb44d403e8eeb71U,
  0x3d4dbbb03e8644bfU, 0xbc1b7c20be855f64U, 0xbbc88ac03d88a01cU, 0xbbfa03c03e3733f2U,
  0xbd534658bdb5d9b4U, 0xbe95ab413e1f6d36U, 0xbe820266be8de5ecU, 0x3e54d8fe3d86932cU,
  0xbd385fd0bd12b800U, 0xbda27078be14f9e4U, 0x3e848f613e8d101fU, 0x3e81dcc1be4c3e48U,
  0xbe6204efbe91e896U, 0xbe8634d1bd1e99f8U, 0x3ea23353beac9f80U, 0x3e489912bced2970U,
  0xbe3ab6cd3e87de91U, 0xbe8cad1c3eb2a34fU, 0x3dcaf3233e915eb7U, 0xbd8d91d5bdddbc7eU,
  0x3da2b55cbebfc8b2U, 0x3e54bfc0be838185U, 0x3d15a00f3e91b393U, 0x3e6c177cbc01e360U,
  0x3dbd9c68be997767U, 0x3e714b0a3e82301aU, 0x3ea223dbbe4f9e5cU, 0xbd99c8c0bdd1056fU,
  0xbe2bee3bbea64544U, 0x3e1210d9be938a4bU, 0x3e1b24d33e89959fU, 0xbe046eda3e195ef6U,
  0xbdece4623e505156U, 0x3d46d6173e4253e8U, 0xbdd18b63be655ba3U, 0xbd4c560cbe17957dU,
  0x3ae6e200bdf43e2eU, 0x3d7d5fbd3e475714U, 0xbd88edacbeb7c6c4U, 0xbeaa7a133e2964eaU,
  0xbdbf90f4be84e981U, 0x3e1da87ebdd5b9f2U, 0xbe9555b5be1c1449U, 0x3cac09a0be93eb90U,
  0xbe5c237abceb2033U, 0x3dda7ad03e9ca333U, 0xbe966ec43e8568bfU, 0x3e89dea9bea45486U,
  0x3d5798a23cb0448cU, 0x3d4bff9600000000U, 0x3cca1ce6U, 0xbca485173d2a257cU,
  0xbc91250900000000U, 0x3d53fab3U, 0x0U, 0xbc831100bbd02f33U,
  0x3ede88ecbefbe03eU, 0x3ed6b5813dfaba28U, 0xbe532c023e20736eU, 0xbe254198be0f9712U,
  0x3ef5ea5fbd893b60U, 0xbe92c572bd9e1bd5U, 0x3e017fe8bc9472c0U, 0x3edd64f1bef462e7U,
  0xbd8f0600be4d2693U, 0xb91214e83e5e9fdcU, 0xbe9acd193da19e80U, 0x3f09a36abe685d8dU,
  0xbe1a28e1bf000402U, 0xbe0c49b0be97babdU, 0xbe36ab40be8893d9U, 0xbeada03a3e432a0dU,
  0x3ed3b46fbd30db54U, 0x3d3fa49cbd24e730U, 0xbeba05ed3e9ff676U, 0x3db9246f3dcb455fU,
  0xbe3647e6be871a84U, 0x3eb6a0e2be2a1c77U, 0x3f064b133c8005a0U, 0xbdd709c6bef557f2U,
  0xbd41865d3d4171c7U, 0xbd40876eU,
};


ai_handle g_network_weights_table[1 + 2] = {
  AI_HANDLE_PTR(AI_MAGIC_MARKER),
  AI_HANDLE_PTR(s_network_weights_array_u64),
  AI_HANDLE_PTR(AI_MAGIC_MARKER),
};

